#pragma once
#include <cstdint>

// Auto-generated from gesture_model_int8.tflite (11104 bytes)
const unsigned int gesture_model_int8_len = 11104;
const unsigned char gesture_model_int8[] = {
    28, 0, 0, 0, 84, 70, 76, 51, 20, 0, 32, 0, 28, 0, 24, 0, 
    20, 0, 16, 0, 12, 0, 0, 0, 8, 0, 4, 0, 20, 0, 0, 0, 
    28, 0, 0, 0, 152, 0, 0, 0, 240, 0, 0, 0, 216, 26, 0, 0, 
    232, 26, 0, 0, 244, 42, 0, 0, 3, 0, 0, 0, 1, 0, 0, 0, 
    16, 0, 0, 0, 0, 0, 10, 0, 16, 0, 12, 0, 8, 0, 4, 0, 
    10, 0, 0, 0, 12, 0, 0, 0, 28, 0, 0, 0, 60, 0, 0, 0, 
    15, 0, 0, 0, 115, 101, 114, 118, 105, 110, 103, 95, 100, 101, 102, 97, 
    117, 108, 116, 0, 1, 0, 0, 0, 4, 0, 0, 0, 144, 255, 255, 255, 
    10, 0, 0, 0, 4, 0, 0, 0, 8, 0, 0, 0, 111, 117, 116, 112, 
    117, 116, 95, 48, 0, 0, 0, 0, 1, 0, 0, 0, 4, 0, 0, 0, 
    14, 229, 255, 255, 4, 0, 0, 0, 14, 0, 0, 0, 107, 101, 114, 97, 
    115, 95, 116, 101, 110, 115, 111, 114, 95, 52, 0, 0, 2, 0, 0, 0, 
    52, 0, 0, 0, 4, 0, 0, 0, 220, 255, 255, 255, 13, 0, 0, 0, 
    4, 0, 0, 0, 19, 0, 0, 0, 67, 79, 78, 86, 69, 82, 83, 73, 
    79, 78, 95, 77, 69, 84, 65, 68, 65, 84, 65, 0, 8, 0, 12, 0, 
    8, 0, 4, 0, 8, 0, 0, 0, 12, 0, 0, 0, 4, 0, 0, 0, 
    19, 0, 0, 0, 109, 105, 110, 95, 114, 117, 110, 116, 105, 109, 101, 95, 
    118, 101, 114, 115, 105, 111, 110, 0, 14, 0, 0, 0, 228, 25, 0, 0, 
    220, 25, 0, 0, 196, 25, 0, 0, 116, 25, 0, 0, 228, 24, 0, 0, 
    212, 16, 0, 0, 196, 15, 0, 0, 180, 0, 0, 0, 172, 0, 0, 0, 
    164, 0, 0, 0, 156, 0, 0, 0, 148, 0, 0, 0, 116, 0, 0, 0, 
    4, 0, 0, 0, 194, 229, 255, 255, 4, 0, 0, 0, 96, 0, 0, 0, 
    12, 0, 0, 0, 8, 0, 14, 0, 8, 0, 4, 0, 8, 0, 0, 0, 
    16, 0, 0, 0, 40, 0, 0, 0, 0, 0, 6, 0, 8, 0, 4, 0, 
    6, 0, 0, 0, 4, 0, 0, 0, 1, 0, 0, 0, 235, 3, 0, 0, 
    12, 0, 24, 0, 20, 0, 16, 0, 12, 0, 4, 0, 12, 0, 0, 0, 
    211, 82, 73, 210, 137, 19, 173, 159, 2, 0, 0, 0, 2, 0, 0, 0, 
    4, 0, 0, 0, 6, 0, 0, 0, 50, 46, 50, 48, 46, 48, 0, 0, 
    46, 230, 255, 255, 4, 0, 0, 0, 16, 0, 0, 0, 49, 46, 49, 52, 
    46, 48, 0, 0, 0, 0, 0, 0, 0, 0, 0, 0, 24, 230, 255, 255, 
    28, 230, 255, 255, 32, 230, 255, 255, 36, 230, 255, 255, 90, 230, 255, 255, 
    4, 0, 0, 0, 0, 15, 0, 0, 78, 89, 151, 122, 243, 171, 121, 182, 
    45, 221, 207, 233, 204, 96, 39, 98, 60, 144, 55, 165, 168, 122, 110, 55, 
    71, 173, 58, 32, 144, 162, 207, 61, 71, 239, 127, 203, 45, 53, 55, 143, 
    180, 147, 120, 222, 65, 95, 166, 168, 184, 189, 102, 64, 9, 121, 1, 147, 
    234, 64, 214, 1, 191, 4, 117, 253, 234, 34, 102, 118, 18, 68, 111, 62, 
    147, 8, 127, 169, 5, 6, 19, 150, 162, 147, 209, 237, 13, 18, 97, 28, 
    112, 37, 94, 199, 206, 245, 206, 178, 122, 155, 73, 220, 12, 167, 240, 137, 
    11, 52, 49, 125, 187, 73, 203, 208, 2, 134, 0, 194, 55, 187, 193, 251, 
    51, 117, 153, 175, 101, 119, 20, 61, 116, 2, 161, 58, 115, 179, 192, 41, 
    65, 251, 132, 77, 188, 131, 245, 239, 143, 216, 2, 89, 11, 230, 213, 139, 
    226, 226, 215, 146, 190, 131, 35, 201, 32, 198, 210, 120, 100, 62, 243, 216, 
    11, 27, 181, 150, 129, 159, 47, 92, 197, 71, 94, 236, 190, 98, 105, 98, 
    66, 170, 33, 246, 49, 162, 103, 80, 3, 244, 48, 204, 51, 232, 59, 199, 
    129, 79, 89, 16, 204, 43, 48, 19, 203, 55, 4, 7, 184, 98, 155, 137, 
    24, 13, 186, 63, 110, 207, 162, 38, 65, 14, 4, 115, 229, 180, 245, 202, 
    251, 156, 51, 140, 99, 230, 117, 85, 145, 156, 31, 23, 214, 211, 153, 93, 
    153, 141, 159, 249, 235, 72, 94, 12, 190, 151, 170, 191, 2, 27, 142, 54, 
    160, 139, 143, 36, 93, 21, 76, 35, 117, 109, 200, 103, 207, 12, 28, 129, 
    70, 30, 8, 71, 106, 58, 227, 43, 185, 9, 255, 12, 38, 189, 193, 31, 
    240, 167, 188, 74, 57, 125, 174, 140, 28, 98, 214, 131, 201, 69, 209, 188, 
    190, 153, 157, 18, 96, 15, 50, 59, 78, 27, 23, 142, 140, 214, 59, 110, 
    125, 71, 76, 244, 40, 107, 56, 133, 131, 219, 45, 227, 208, 201, 149, 185, 
    243, 66, 92, 54, 157, 241, 109, 93, 66, 20, 238, 71, 127, 214, 83, 141, 
    157, 145, 145, 59, 249, 48, 220, 47, 109, 9, 47, 20, 206, 248, 217, 82, 
    225, 35, 205, 254, 71, 196, 101, 2, 53, 180, 166, 239, 226, 31, 33, 158, 
    89, 234, 129, 1, 194, 105, 145, 35, 69, 255, 216, 93, 204, 42, 70, 247, 
    211, 184, 129, 89, 72, 248, 55, 219, 151, 214, 216, 37, 50, 2, 169, 87, 
    165, 103, 231, 178, 237, 168, 218, 111, 30, 127, 221, 192, 106, 151, 105, 23, 
    140, 70, 84, 56, 81, 237, 182, 104, 0, 66, 216, 74, 154, 233, 233, 199, 
    12, 188, 50, 75, 251, 73, 114, 185, 198, 179, 252, 245, 209, 83, 192, 25, 
    220, 245, 133, 114, 202, 137, 4, 152, 44, 52, 83, 173, 127, 103, 217, 238, 
    247, 178, 179, 120, 67, 34, 224, 50, 153, 200, 200, 208, 215, 223, 108, 47, 
    164, 111, 92, 92, 179, 150, 189, 97, 246, 37, 111, 204, 94, 131, 73, 26, 
    199, 94, 182, 96, 138, 92, 64, 19, 164, 22, 223, 168, 67, 140, 62, 218, 
    236, 182, 165, 222, 1, 201, 215, 172, 84, 5, 97, 253, 14, 245, 200, 149, 
    213, 36, 26, 211, 244, 119, 72, 2, 44, 218, 109, 63, 32, 247, 170, 205, 
    91, 20, 241, 174, 164, 235, 241, 209, 110, 32, 104, 196, 23, 182, 174, 80, 
    192, 124, 127, 123, 225, 145, 22, 33, 138, 33, 135, 186, 197, 43, 67, 58, 
    136, 83, 249, 7, 236, 176, 22, 135, 202, 56, 149, 143, 108, 217, 6, 144, 
    251, 232, 181, 225, 202, 217, 157, 169, 11, 198, 120, 149, 10, 16, 65, 59, 
    95, 8, 165, 220, 152, 1, 65, 78, 254, 144, 97, 70, 156, 115, 129, 63, 
    219, 102, 77, 155, 173, 26, 102, 42, 245, 241, 97, 160, 106, 244, 67, 15, 
    212, 216, 213, 151, 210, 252, 215, 244, 60, 224, 226, 100, 0, 254, 177, 0, 
    228, 212, 25, 189, 84, 242, 178, 159, 126, 44, 238, 15, 255, 127, 251, 11, 
    84, 89, 177, 57, 215, 162, 49, 22, 232, 17, 3, 32, 30, 239, 110, 143, 
    49, 33, 46, 153, 224, 177, 186, 101, 241, 63, 8, 227, 12, 191, 102, 178, 
    70, 180, 242, 122, 201, 78, 6, 183, 24, 246, 41, 12, 181, 93, 189, 32, 
    100, 88, 188, 2, 161, 1, 73, 57, 212, 7, 218, 92, 51, 255, 129, 42, 
    90, 23, 184, 10, 68, 178, 219, 75, 3, 179, 106, 83, 75, 27, 42, 137, 
    9, 90, 244, 169, 36, 198, 215, 45, 174, 76, 70, 142, 207, 225, 136, 161, 
    130, 249, 17, 27, 99, 84, 187, 135, 164, 80, 144, 198, 92, 229, 193, 149, 
    219, 3, 176, 63, 74, 155, 75, 75, 12, 207, 172, 93, 246, 245, 87, 149, 
    224, 233, 7, 141, 146, 44, 84, 188, 177, 129, 216, 248, 90, 147, 91, 36, 
    146, 100, 173, 70, 254, 208, 3, 37, 97, 235, 28, 202, 227, 6, 164, 194, 
    106, 182, 151, 228, 227, 205, 76, 111, 176, 213, 34, 193, 246, 4, 11, 72, 
    235, 172, 215, 102, 30, 127, 110, 106, 51, 205, 237, 203, 37, 152, 67, 88, 
    163, 6, 72, 57, 112, 158, 249, 60, 42, 246, 47, 140, 96, 199, 224, 57, 
    144, 221, 57, 186, 30, 103, 169, 113, 163, 19, 214, 193, 191, 0, 186, 212, 
    119, 244, 130, 20, 127, 63, 153, 178, 177, 171, 218, 147, 1, 42, 249, 87, 
    216, 90, 158, 210, 21, 172, 181, 111, 62, 62, 6, 236, 68, 117, 29, 141, 
    182, 175, 236, 188, 97, 171, 208, 56, 58, 49, 172, 115, 116, 55, 204, 57, 
    97, 135, 11, 168, 199, 44, 159, 125, 196, 200, 46, 166, 84, 54, 70, 118, 
    49, 215, 111, 205, 181, 62, 241, 98, 100, 24, 51, 122, 135, 4, 61, 162, 
    6, 153, 159, 127, 186, 143, 252, 197, 12, 216, 83, 37, 142, 29, 140, 255, 
    219, 58, 124, 73, 154, 82, 100, 200, 59, 85, 203, 244, 127, 89, 209, 135, 
    107, 227, 136, 95, 145, 238, 206, 242, 202, 178, 52, 42, 12, 221, 2, 107, 
    103, 158, 242, 173, 38, 88, 230, 43, 141, 42, 137, 251, 179, 161, 222, 136, 
    130, 246, 163, 73, 126, 173, 156, 183, 57, 182, 213, 132, 135, 50, 157, 54, 
    205, 186, 246, 145, 189, 129, 130, 213, 138, 133, 110, 36, 220, 82, 4, 1, 
    94, 35, 167, 178, 205, 181, 205, 43, 24, 3, 126, 9, 30, 6, 143, 29, 
    39, 90, 170, 134, 180, 99, 90, 209, 159, 26, 255, 241, 113, 4, 134, 230, 
    125, 66, 53, 51, 113, 41, 196, 250, 249, 245, 73, 214, 171, 208, 145, 19, 
    33, 192, 101, 233, 176, 151, 231, 111, 138, 191, 16, 109, 125, 17, 62, 59, 
    68, 174, 11, 146, 87, 178, 147, 189, 127, 16, 173, 57, 73, 120, 16, 181, 
    181, 217, 41, 28, 142, 222, 132, 158, 238, 93, 221, 28, 105, 134, 53, 139, 
    254, 37, 189, 232, 190, 191, 195, 199, 217, 101, 94, 244, 22, 8, 129, 35, 
    59, 248, 82, 90, 244, 8, 35, 54, 155, 166, 28, 68, 103, 8, 139, 112, 
    202, 3, 74, 175, 170, 3, 83, 205, 13, 66, 222, 230, 77, 39, 42, 249, 
    95, 11, 22, 109, 55, 15, 101, 90, 196, 186, 93, 185, 84, 94, 236, 27, 
    118, 137, 64, 131, 85, 33, 3, 24, 215, 7, 203, 251, 82, 241, 60, 8, 
    58, 181, 59, 107, 236, 62, 190, 4, 169, 183, 34, 159, 11, 27, 189, 207, 
    7, 218, 127, 46, 75, 79, 186, 253, 188, 248, 88, 146, 206, 63, 65, 172, 
    194, 187, 40, 203, 60, 36, 241, 241, 97, 14, 55, 160, 117, 190, 106, 67, 
    17, 152, 152, 46, 40, 26, 224, 9, 61, 7, 183, 14, 61, 81, 234, 129, 
    23, 65, 80, 158, 146, 95, 38, 235, 222, 110, 133, 15, 130, 61, 31, 176, 
    118, 104, 162, 226, 253, 41, 101, 195, 181, 175, 134, 92, 224, 78, 199, 141, 
    98, 133, 46, 20, 21, 167, 246, 224, 99, 46, 115, 80, 21, 65, 54, 91, 
    80, 59, 180, 206, 57, 210, 14, 69, 255, 226, 194, 8, 127, 31, 234, 116, 
    114, 136, 227, 208, 189, 167, 163, 219, 217, 78, 156, 163, 10, 194, 154, 84, 
    78, 192, 38, 176, 219, 233, 67, 210, 219, 87, 192, 147, 82, 169, 21, 119, 
    205, 207, 188, 19, 120, 190, 76, 154, 111, 168, 140, 194, 204, 15, 247, 106, 
    119, 240, 68, 114, 68, 17, 65, 94, 81, 208, 202, 157, 217, 227, 190, 129, 
    250, 229, 13, 158, 74, 251, 18, 236, 194, 200, 60, 48, 176, 241, 9, 71, 
    225, 59, 11, 112, 180, 181, 116, 15, 148, 121, 183, 33, 148, 196, 54, 233, 
    28, 117, 202, 173, 127, 181, 84, 29, 167, 206, 66, 242, 106, 49, 161, 12, 
    59, 123, 121, 63, 214, 32, 124, 254, 213, 195, 40, 30, 102, 63, 215, 240, 
    32, 88, 7, 80, 206, 99, 168, 242, 184, 26, 234, 37, 229, 214, 129, 207, 
    238, 110, 139, 15, 181, 188, 41, 92, 150, 134, 36, 165, 234, 81, 202, 175, 
    88, 82, 173, 225, 20, 211, 183, 157, 250, 65, 187, 178, 127, 85, 167, 99, 
    149, 9, 1, 217, 57, 183, 96, 154, 225, 236, 47, 24, 68, 152, 226, 52, 
    207, 111, 44, 236, 150, 110, 116, 228, 54, 243, 48, 150, 156, 148, 70, 51, 
    38, 65, 238, 115, 187, 172, 194, 83, 2, 161, 75, 198, 162, 23, 26, 223, 
    99, 201, 237, 208, 210, 168, 11, 73, 170, 88, 221, 31, 62, 216, 6, 98, 
    170, 197, 191, 47, 152, 175, 65, 135, 244, 85, 254, 208, 54, 204, 18, 117, 
    125, 106, 211, 129, 19, 162, 90, 202, 137, 254, 191, 100, 50, 11, 203, 103, 
    125, 113, 92, 79, 208, 202, 227, 73, 202, 64, 59, 154, 129, 201, 195, 101, 
    79, 116, 222, 104, 54, 246, 198, 122, 36, 183, 241, 33, 116, 163, 45, 73, 
    198, 121, 209, 19, 138, 27, 18, 112, 207, 221, 216, 56, 245, 5, 108, 65, 
    164, 245, 7, 1, 167, 242, 19, 111, 211, 230, 191, 115, 149, 139, 84, 218, 
    105, 63, 7, 75, 233, 36, 213, 3, 39, 127, 16, 223, 13, 202, 24, 60, 
    220, 62, 237, 235, 51, 251, 83, 181, 241, 43, 240, 11, 216, 189, 210, 34, 
    100, 161, 173, 228, 169, 189, 200, 209, 189, 80, 136, 44, 244, 14, 213, 51, 
    189, 170, 213, 75, 120, 7, 221, 59, 76, 67, 207, 43, 226, 183, 180, 87, 
    77, 221, 221, 141, 168, 47, 247, 188, 150, 103, 34, 174, 151, 24, 194, 18, 
    95, 25, 74, 37, 195, 240, 138, 91, 63, 185, 30, 184, 149, 156, 148, 188, 
    105, 145, 216, 47, 154, 99, 236, 212, 71, 129, 144, 250, 77, 218, 109, 255, 
    48, 170, 63, 230, 48, 248, 61, 74, 102, 189, 80, 5, 48, 117, 254, 137, 
    72, 50, 113, 21, 248, 68, 0, 118, 210, 201, 243, 134, 219, 134, 246, 35, 
    122, 106, 71, 210, 115, 11, 188, 150, 228, 228, 77, 93, 60, 37, 143, 138, 
    157, 199, 202, 192, 181, 252, 136, 117, 129, 251, 97, 251, 174, 75, 197, 246, 
    137, 123, 224, 244, 65, 124, 198, 15, 46, 181, 156, 103, 94, 146, 225, 124, 
    15, 33, 99, 114, 43, 158, 33, 180, 129, 193, 58, 56, 132, 48, 153, 153, 
    150, 174, 14, 52, 113, 49, 143, 62, 156, 63, 68, 171, 19, 57, 51, 192, 
    176, 188, 80, 40, 215, 190, 101, 39, 116, 217, 163, 64, 73, 66, 62, 227, 
    102, 122, 52, 32, 91, 167, 98, 29, 102, 65, 162, 103, 139, 173, 150, 35, 
    48, 75, 154, 239, 173, 130, 208, 119, 125, 153, 207, 116, 165, 46, 233, 115, 
    206, 194, 174, 3, 222, 27, 65, 57, 54, 206, 10, 249, 253, 66, 235, 60, 
    120, 217, 41, 129, 93, 167, 3, 56, 14, 223, 230, 129, 46, 154, 24, 53, 
    186, 123, 72, 138, 87, 50, 147, 143, 60, 92, 154, 57, 227, 73, 221, 148, 
    73, 170, 85, 217, 159, 253, 161, 208, 68, 178, 116, 188, 39, 250, 207, 208, 
    156, 53, 146, 210, 8, 94, 175, 176, 218, 84, 23, 172, 37, 174, 145, 231, 
    80, 70, 47, 127, 154, 62, 124, 62, 184, 119, 38, 94, 206, 209, 91, 3, 
    66, 100, 163, 149, 38, 131, 62, 146, 246, 143, 223, 146, 187, 191, 44, 253, 
    15, 241, 249, 2, 129, 42, 211, 173, 161, 117, 152, 153, 224, 88, 124, 213, 
    96, 36, 245, 250, 231, 138, 27, 7, 43, 47, 235, 172, 74, 123, 144, 180, 
    230, 152, 90, 183, 26, 57, 191, 19, 199, 111, 236, 254, 82, 45, 127, 174, 
    155, 144, 58, 107, 190, 21, 245, 117, 247, 146, 24, 230, 113, 219, 181, 228, 
    109, 104, 94, 56, 25, 30, 238, 68, 17, 54, 42, 58, 196, 43, 51, 25, 
    68, 234, 49, 10, 165, 246, 169, 146, 225, 200, 235, 228, 15, 87, 140, 116, 
    164, 170, 32, 147, 122, 107, 61, 190, 57, 45, 29, 237, 192, 15, 37, 230, 
    20, 213, 192, 42, 84, 214, 55, 64, 72, 153, 213, 2, 172, 251, 247, 154, 
    22, 146, 152, 60, 139, 239, 41, 229, 191, 211, 79, 229, 236, 197, 242, 129, 
    110, 95, 92, 88, 98, 157, 85, 104, 91, 238, 19, 68, 142, 100, 1, 21, 
    70, 26, 136, 131, 226, 34, 222, 21, 111, 183, 45, 21, 121, 102, 189, 77, 
    216, 62, 239, 82, 217, 163, 227, 168, 247, 152, 164, 167, 8, 214, 55, 129, 
    215, 110, 1, 104, 70, 70, 242, 72, 236, 149, 98, 50, 186, 160, 177, 246, 
    36, 150, 103, 177, 12, 162, 197, 187, 198, 230, 48, 15, 213, 0, 102, 233, 
    217, 167, 141, 247, 235, 195, 172, 102, 166, 49, 197, 94, 0, 129, 87, 183, 
    73, 231, 205, 73, 4, 242, 198, 165, 150, 103, 253, 34, 110, 240, 255, 223, 
    191, 104, 229, 201, 243, 26, 59, 154, 79, 36, 139, 178, 153, 191, 196, 114, 
    97, 9, 158, 1, 42, 174, 38, 242, 217, 236, 11, 46, 11, 99, 158, 34, 
    110, 23, 71, 215, 89, 127, 63, 118, 165, 41, 167, 151, 190, 245, 237, 197, 
    6, 117, 235, 228, 72, 17, 238, 76, 189, 100, 141, 109, 165, 23, 145, 79, 
    88, 155, 170, 75, 231, 143, 204, 44, 236, 71, 255, 73, 47, 77, 151, 248, 
    68, 12, 221, 65, 108, 18, 220, 35, 241, 45, 217, 221, 238, 49, 184, 107, 
    122, 86, 95, 152, 164, 103, 0, 136, 177, 127, 147, 35, 206, 157, 119, 115, 
    107, 25, 43, 118, 111, 240, 211, 84, 160, 222, 110, 153, 13, 54, 229, 185, 
    23, 35, 162, 155, 54, 210, 199, 0, 76, 33, 199, 140, 29, 134, 83, 239, 
    81, 48, 238, 68, 17, 248, 102, 188, 103, 71, 228, 114, 162, 3, 46, 56, 
    226, 38, 116, 131, 147, 143, 166, 140, 253, 90, 73, 251, 127, 237, 178, 254, 
    214, 200, 215, 101, 28, 65, 7, 94, 169, 239, 171, 21, 234, 10, 172, 12, 
    222, 207, 188, 177, 86, 207, 201, 233, 176, 177, 25, 40, 37, 158, 153, 242, 
    66, 207, 143, 192, 218, 71, 65, 31, 38, 111, 113, 71, 87, 203, 83, 225, 
    201, 198, 179, 181, 104, 254, 53, 91, 226, 48, 1, 58, 43, 93, 172, 36, 
    102, 239, 40, 131, 129, 9, 95, 49, 48, 135, 96, 164, 59, 55, 239, 107, 
    27, 71, 167, 177, 165, 152, 117, 250, 143, 27, 153, 208, 213, 105, 52, 145, 
    35, 242, 94, 115, 160, 118, 235, 22, 172, 145, 166, 187, 137, 6, 59, 246, 
    196, 229, 54, 34, 191, 170, 217, 143, 176, 88, 81, 74, 127, 182, 139, 254, 
    187, 78, 191, 191, 5, 110, 240, 90, 28, 217, 241, 74, 204, 49, 115, 222, 
    135, 23, 8, 216, 203, 216, 27, 121, 80, 229, 25, 159, 6, 85, 239, 135, 
    9, 106, 209, 178, 211, 110, 160, 32, 200, 88, 190, 226, 56, 107, 129, 32, 
    238, 248, 132, 191, 239, 49, 112, 198, 23, 245, 77, 34, 15, 218, 97, 34, 
    196, 39, 119, 172, 153, 192, 6, 94, 94, 8, 4, 109, 84, 178, 163, 59, 
    114, 241, 75, 214, 116, 129, 222, 187, 52, 41, 179, 98, 95, 209, 6, 38, 
    253, 50, 123, 80, 237, 188, 126, 246, 222, 30, 62, 108, 64, 140, 26, 170, 
    245, 67, 75, 172, 9, 1, 109, 251, 17, 26, 198, 4, 226, 90, 127, 206, 
    114, 228, 255, 187, 86, 54, 160, 239, 95, 164, 105, 205, 247, 150, 228, 238, 
    47, 46, 30, 115, 49, 186, 150, 224, 87, 160, 100, 53, 213, 208, 18, 254, 
    46, 87, 112, 20, 204, 115, 129, 34, 193, 226, 182, 8, 16, 65, 253, 10, 
    219, 242, 112, 97, 214, 22, 207, 217, 87, 249, 75, 152, 47, 20, 126, 31, 
    15, 28, 77, 119, 204, 198, 208, 34, 99, 50, 76, 146, 74, 98, 116, 141, 
    65, 8, 148, 96, 23, 69, 101, 74, 191, 151, 133, 227, 67, 100, 86, 9, 
    123, 183, 83, 122, 30, 227, 90, 132, 178, 195, 186, 160, 252, 136, 220, 196, 
    81, 109, 45, 177, 159, 8, 45, 117, 185, 172, 72, 174, 31, 226, 89, 24, 
    100, 182, 175, 129, 94, 64, 129, 205, 79, 173, 48, 66, 167, 117, 201, 116, 
    127, 21, 29, 210, 208, 217, 253, 103, 1, 202, 64, 218, 197, 80, 245, 211, 
    165, 50, 73, 146, 149, 171, 22, 64, 216, 37, 111, 49, 165, 79, 78, 174, 
    139, 181, 80, 157, 101, 238, 197, 87, 205, 246, 25, 158, 133, 38, 206, 154, 
    224, 233, 143, 226, 108, 109, 91, 16, 81, 243, 44, 19, 153, 248, 117, 159, 
    65, 12, 65, 23, 107, 121, 203, 148, 210, 151, 53, 123, 33, 126, 71, 217, 
    73, 139, 63, 231, 86, 201, 135, 48, 40, 202, 201, 29, 63, 195, 61, 221, 
    117, 78, 127, 144, 238, 36, 106, 211, 31, 252, 153, 161, 93, 70, 11, 168, 
    44, 116, 43, 118, 45, 122, 193, 150, 210, 82, 111, 38, 215, 73, 203, 96, 
    81, 56, 122, 214, 53, 168, 241, 105, 125, 245, 52, 182, 158, 229, 229, 119, 
    66, 22, 217, 79, 108, 19, 253, 217, 18, 142, 142, 219, 50, 237, 93, 220, 
    111, 38, 94, 228, 108, 190, 129, 210, 254, 157, 115, 219, 51, 5, 110, 41, 
    107, 50, 13, 107, 9, 206, 165, 45, 117, 103, 64, 108, 72, 193, 226, 127, 
    80, 140, 145, 95, 167, 116, 197, 83, 104, 241, 144, 18, 131, 134, 119, 141, 
    74, 60, 82, 139, 167, 187, 101, 46, 226, 151, 178, 78, 176, 177, 137, 132, 
    85, 141, 172, 74, 224, 141, 46, 112, 225, 219, 190, 18, 27, 142, 191, 235, 
    36, 97, 187, 80, 44, 150, 127, 245, 28, 180, 202, 169, 124, 180, 96, 193, 
    245, 85, 90, 76, 81, 193, 239, 206, 92, 183, 31, 59, 18, 38, 206, 253, 
    251, 124, 236, 171, 197, 193, 189, 4, 83, 162, 157, 148, 33, 110, 167, 221, 
    179, 118, 94, 127, 235, 222, 211, 95, 26, 34, 201, 18, 79, 224, 137, 200, 
    123, 230, 137, 131, 96, 165, 67, 54, 4, 86, 183, 167, 229, 240, 223, 81, 
    5, 51, 119, 108, 101, 106, 160, 169, 97, 16, 5, 80, 4, 133, 211, 229, 
    3, 77, 12, 16, 246, 215, 28, 235, 35, 58, 90, 42, 90, 29, 172, 51, 
    54, 25, 1, 9, 156, 46, 221, 46, 200, 88, 78, 240, 95, 245, 200, 212, 
    164, 158, 41, 178, 104, 221, 8, 35, 53, 95, 206, 117, 85, 244, 90, 111, 
    224, 156, 51, 177, 84, 232, 180, 181, 61, 203, 36, 198, 67, 28, 166, 209, 
    171, 18, 157, 54, 154, 159, 129, 17, 40, 94, 82, 254, 85, 7, 5, 91, 
    175, 238, 184, 235, 48, 2, 231, 44, 34, 65, 232, 146, 208, 166, 131, 197, 
    65, 51, 189, 61, 214, 183, 250, 10, 186, 56, 33, 97, 21, 223, 43, 22, 
    23, 25, 22, 22, 129, 158, 245, 160, 21, 173, 23, 80, 179, 169, 5, 42, 
    144, 165, 166, 77, 181, 25, 208, 69, 161, 248, 25, 38, 11, 127, 10, 167, 
    189, 175, 37, 104, 20, 212, 65, 18, 152, 120, 212, 144, 229, 241, 14, 94, 
    250, 46, 14, 233, 96, 185, 165, 126, 177, 235, 226, 147, 74, 9, 117, 34, 
    38, 116, 107, 250, 164, 134, 239, 234, 65, 227, 148, 33, 249, 19, 27, 143, 
    245, 146, 175, 126, 90, 225, 143, 37, 167, 36, 87, 202, 115, 176, 68, 120, 
    147, 59, 209, 109, 107, 101, 80, 61, 171, 63, 227, 52, 52, 151, 115, 178, 
    175, 87, 250, 83, 24, 156, 154, 250, 116, 123, 103, 248, 58, 45, 186, 226, 
    175, 225, 227, 40, 196, 127, 43, 148, 246, 72, 54, 165, 129, 215, 10, 62, 
    202, 232, 100, 0, 89, 153, 185, 175, 216, 198, 232, 230, 92, 186, 243, 239, 
    19, 100, 120, 37, 43, 77, 97, 164, 104, 251, 153, 189, 196, 227, 249, 207, 
    113, 247, 178, 5, 138, 43, 11, 3, 76, 196, 177, 0, 115, 214, 7, 143, 
    165, 227, 41, 47, 9, 100, 42, 115, 56, 213, 55, 83, 5, 95, 191, 45, 
    194, 196, 67, 127, 52, 249, 47, 68, 164, 182, 126, 250, 184, 46, 46, 96, 
    13, 32, 198, 166, 106, 112, 203, 17, 59, 36, 190, 202, 255, 237, 119, 220, 
    133, 11, 120, 242, 115, 11, 8, 121, 142, 200, 154, 9, 167, 94, 195, 18, 
    15, 161, 163, 174, 117, 127, 195, 47, 225, 166, 179, 229, 96, 139, 49, 196, 
    47, 61, 1, 122, 41, 142, 224, 208, 30, 241, 233, 154, 173, 55, 135, 22, 
    69, 75, 148, 240, 200, 85, 210, 118, 5, 162, 242, 158, 194, 176, 48, 197, 
    184, 248, 58, 207, 255, 236, 148, 48, 0, 218, 40, 13, 151, 195, 225, 101, 
    42, 246, 56, 87, 21, 236, 132, 53, 96, 111, 198, 255, 37, 127, 68, 82, 
    219, 210, 227, 136, 116, 10, 88, 95, 202, 154, 254, 173, 35, 231, 64, 105, 
    91, 84, 200, 30, 81, 47, 227, 204, 19, 174, 252, 61, 232, 2, 221, 241, 
    64, 184, 221, 222, 162, 61, 16, 39, 158, 70, 181, 111, 133, 109, 135, 232, 
    21, 242, 182, 190, 90, 45, 7, 227, 92, 100, 44, 113, 183, 10, 96, 166, 
    29, 75, 34, 127, 30, 148, 112, 207, 154, 156, 68, 19, 166, 46, 207, 157, 
    106, 5, 199, 54, 151, 4, 144, 9, 114, 120, 190, 151, 198, 234, 73, 135, 
    118, 203, 185, 138, 62, 145, 146, 203, 102, 245, 255, 255, 4, 0, 0, 0, 
    0, 1, 0, 0, 0, 0, 0, 0, 0, 0, 0, 0, 0, 0, 0, 0, 
    0, 0, 0, 0, 0, 0, 0, 0, 0, 0, 0, 0, 0, 0, 0, 0, 
    0, 0, 0, 0, 0, 0, 0, 0, 0, 0, 0, 0, 0, 0, 0, 0, 
    0, 0, 0, 0, 0, 0, 0, 0, 0, 0, 0, 0, 0, 0, 0, 0, 
    0, 0, 0, 0, 0, 0, 0, 0, 0, 0, 0, 0, 0, 0, 0, 0, 
    0, 0, 0, 0, 0, 0, 0, 0, 0, 0, 0, 0, 0, 0, 0, 0, 
    0, 0, 0, 0, 0, 0, 0, 0, 0, 0, 0, 0, 0, 0, 0, 0, 
    0, 0, 0, 0, 0, 0, 0, 0, 0, 0, 0, 0, 0, 0, 0, 0, 
    0, 0, 0, 0, 0, 0, 0, 0, 0, 0, 0, 0, 0, 0, 0, 0, 
    0, 0, 0, 0, 0, 0, 0, 0, 0, 0, 0, 0, 0, 0, 0, 0, 
    0, 0, 0, 0, 0, 0, 0, 0, 0, 0, 0, 0, 0, 0, 0, 0, 
    0, 0, 0, 0, 0, 0, 0, 0, 0, 0, 0, 0, 0, 0, 0, 0, 
    0, 0, 0, 0, 0, 0, 0, 0, 0, 0, 0, 0, 0, 0, 0, 0, 
    0, 0, 0, 0, 0, 0, 0, 0, 0, 0, 0, 0, 0, 0, 0, 0, 
    0, 0, 0, 0, 0, 0, 0, 0, 0, 0, 0, 0, 0, 0, 0, 0, 
    0, 0, 0, 0, 0, 0, 0, 0, 0, 0, 0, 0, 0, 0, 0, 0, 
    0, 0, 0, 0, 114, 246, 255, 255, 4, 0, 0, 0, 0, 8, 0, 0, 
    103, 201, 73, 54, 31, 255, 106, 136, 18, 215, 233, 235, 215, 185, 106, 136, 
    238, 76, 53, 223, 150, 9, 176, 177, 74, 69, 103, 93, 64, 159, 228, 110, 
    122, 34, 112, 150, 16, 32, 127, 149, 252, 9, 196, 45, 184, 188, 5, 197, 
    197, 109, 91, 52, 142, 111, 106, 148, 138, 6, 149, 196, 131, 225, 64, 23, 
    115, 74, 51, 223, 114, 234, 178, 241, 104, 37, 42, 144, 239, 142, 71, 162, 
    106, 82, 205, 135, 202, 214, 145, 136, 157, 192, 205, 111, 111, 233, 184, 41, 
    88, 148, 239, 70, 247, 136, 141, 188, 190, 71, 7, 115, 81, 241, 228, 26, 
    24, 45, 229, 14, 102, 137, 127, 158, 87, 221, 44, 15, 59, 169, 203, 49, 
    202, 220, 135, 48, 122, 219, 8, 75, 187, 104, 110, 197, 54, 114, 201, 74, 
    154, 28, 138, 95, 58, 187, 205, 201, 129, 39, 76, 21, 176, 224, 95, 222, 
    55, 237, 251, 202, 253, 78, 59, 5, 206, 87, 88, 116, 167, 145, 206, 135, 
    247, 114, 76, 10, 252, 228, 64, 111, 56, 203, 188, 142, 117, 19, 114, 206, 
    108, 33, 162, 187, 46, 38, 243, 130, 22, 179, 138, 100, 23, 113, 235, 192, 
    1, 155, 65, 228, 38, 120, 170, 197, 190, 235, 217, 199, 68, 94, 37, 56, 
    228, 51, 35, 87, 202, 68, 127, 181, 161, 218, 75, 165, 104, 196, 59, 99, 
    182, 74, 110, 184, 181, 214, 54, 51, 241, 78, 236, 0, 220, 87, 45, 205, 
    134, 74, 28, 216, 95, 164, 114, 20, 36, 253, 199, 103, 105, 230, 241, 162, 
    89, 254, 172, 170, 90, 27, 69, 165, 98, 190, 19, 35, 132, 129, 182, 123, 
    254, 60, 19, 117, 62, 33, 32, 166, 61, 145, 163, 67, 82, 170, 98, 194, 
    59, 76, 235, 91, 237, 119, 160, 147, 172, 167, 8, 102, 65, 134, 0, 21, 
    97, 61, 99, 75, 175, 240, 57, 246, 182, 175, 145, 147, 21, 23, 51, 168, 
    90, 135, 148, 180, 214, 87, 89, 148, 30, 104, 32, 73, 106, 8, 24, 228, 
    132, 32, 143, 10, 129, 89, 9, 166, 62, 90, 152, 13, 19, 173, 40, 25, 
    143, 10, 144, 221, 155, 238, 33, 73, 24, 120, 64, 3, 191, 153, 62, 99, 
    194, 215, 176, 143, 117, 77, 9, 69, 65, 226, 180, 223, 251, 253, 146, 101, 
    248, 220, 198, 246, 36, 37, 241, 220, 232, 252, 250, 22, 89, 78, 166, 63, 
    44, 179, 208, 33, 55, 50, 234, 228, 117, 246, 215, 96, 125, 45, 102, 144, 
    255, 79, 59, 254, 187, 238, 210, 219, 62, 80, 129, 81, 49, 234, 223, 209, 
    67, 38, 198, 61, 7, 26, 163, 26, 25, 54, 255, 104, 136, 237, 222, 129, 
    240, 30, 49, 20, 104, 49, 59, 34, 163, 249, 209, 143, 177, 160, 56, 45, 
    33, 25, 47, 27, 149, 244, 105, 221, 32, 43, 107, 180, 146, 182, 114, 190, 
    193, 239, 97, 82, 185, 52, 224, 72, 117, 189, 141, 158, 228, 143, 12, 178, 
    158, 29, 1, 204, 159, 68, 36, 231, 57, 152, 174, 247, 145, 49, 54, 18, 
    149, 10, 167, 50, 118, 83, 55, 85, 222, 97, 180, 30, 250, 35, 249, 180, 
    224, 189, 222, 7, 122, 127, 161, 65, 36, 224, 143, 21, 152, 237, 230, 17, 
    229, 83, 186, 83, 107, 228, 215, 148, 17, 102, 238, 56, 196, 41, 59, 169, 
    14, 106, 136, 203, 221, 116, 172, 104, 178, 247, 136, 31, 83, 109, 79, 246, 
    71, 115, 68, 141, 234, 10, 175, 74, 46, 100, 60, 167, 116, 173, 207, 184, 
    89, 161, 167, 193, 209, 151, 137, 43, 4, 79, 69, 62, 190, 204, 153, 103, 
    184, 57, 78, 129, 214, 252, 48, 40, 53, 119, 76, 195, 83, 69, 7, 226, 
    215, 56, 167, 84, 227, 113, 243, 15, 223, 109, 44, 255, 37, 6, 229, 21, 
    233, 179, 59, 104, 93, 157, 5, 151, 248, 244, 142, 72, 1, 147, 74, 206, 
    211, 72, 252, 193, 217, 18, 127, 216, 255, 78, 193, 32, 66, 4, 142, 155, 
    200, 103, 198, 87, 235, 191, 217, 181, 82, 234, 143, 133, 234, 109, 219, 183, 
    139, 5, 166, 56, 226, 236, 38, 253, 125, 55, 77, 162, 201, 153, 224, 117, 
    198, 245, 108, 60, 203, 216, 163, 246, 164, 242, 140, 56, 203, 228, 12, 166, 
    153, 221, 249, 75, 86, 123, 236, 92, 50, 90, 93, 64, 121, 229, 129, 59, 
    234, 245, 195, 250, 2, 122, 158, 244, 159, 121, 151, 138, 230, 222, 252, 232, 
    238, 127, 177, 114, 30, 81, 187, 41, 0, 56, 85, 176, 195, 27, 200, 29, 
    203, 182, 6, 23, 10, 30, 27, 228, 242, 19, 51, 197, 175, 188, 111, 144, 
    169, 145, 193, 233, 182, 185, 176, 223, 40, 255, 93, 172, 213, 66, 25, 106, 
    15, 173, 196, 155, 213, 9, 60, 33, 4, 179, 202, 72, 130, 9, 228, 13, 
    221, 242, 132, 70, 42, 223, 138, 245, 97, 67, 111, 1, 147, 32, 43, 13, 
    102, 72, 90, 165, 0, 138, 103, 143, 28, 57, 129, 247, 174, 110, 150, 55, 
    205, 150, 244, 35, 88, 181, 92, 208, 114, 55, 181, 246, 253, 228, 191, 250, 
    17, 24, 243, 160, 125, 88, 222, 100, 95, 177, 206, 76, 230, 54, 149, 153, 
    29, 116, 5, 192, 22, 159, 158, 212, 248, 78, 59, 68, 77, 129, 224, 240, 
    80, 56, 151, 245, 177, 200, 125, 196, 207, 103, 84, 233, 107, 26, 134, 189, 
    80, 179, 129, 123, 143, 94, 123, 132, 146, 89, 155, 181, 106, 222, 47, 54, 
    156, 8, 125, 195, 121, 179, 248, 24, 85, 133, 95, 209, 21, 150, 200, 49, 
    236, 57, 242, 180, 247, 82, 91, 129, 243, 18, 121, 240, 37, 143, 45, 220, 
    163, 238, 212, 79, 109, 218, 248, 144, 63, 27, 16, 108, 115, 100, 143, 1, 
    143, 145, 38, 9, 11, 193, 113, 123, 186, 26, 230, 150, 24, 165, 223, 55, 
    59, 55, 50, 248, 58, 45, 199, 98, 208, 31, 252, 88, 49, 175, 150, 24, 
    34, 151, 180, 180, 204, 252, 98, 171, 199, 163, 199, 132, 113, 103, 71, 33, 
    241, 101, 32, 228, 12, 49, 187, 248, 76, 40, 91, 223, 25, 123, 226, 45, 
    240, 12, 135, 181, 163, 138, 64, 125, 165, 21, 49, 246, 249, 28, 55, 115, 
    2, 36, 214, 190, 250, 79, 205, 194, 244, 129, 94, 146, 202, 242, 124, 102, 
    210, 242, 248, 203, 215, 150, 69, 15, 153, 255, 238, 182, 255, 18, 13, 230, 
    2, 49, 187, 120, 244, 197, 21, 113, 129, 26, 242, 140, 73, 168, 196, 187, 
    138, 64, 188, 139, 158, 211, 112, 168, 176, 115, 42, 171, 212, 0, 250, 204, 
    0, 40, 41, 93, 64, 139, 159, 51, 150, 99, 212, 114, 184, 209, 161, 17, 
    38, 36, 245, 115, 136, 56, 131, 195, 167, 97, 149, 8, 188, 104, 153, 52, 
    55, 227, 108, 196, 196, 54, 189, 238, 176, 24, 12, 98, 94, 62, 64, 145, 
    195, 5, 52, 75, 167, 31, 203, 144, 21, 19, 198, 53, 38, 25, 62, 227, 
    47, 146, 143, 207, 206, 237, 216, 210, 53, 104, 67, 253, 232, 113, 127, 89, 
    174, 129, 188, 251, 215, 197, 66, 166, 236, 47, 75, 145, 170, 139, 122, 78, 
    246, 202, 167, 146, 175, 134, 108, 129, 94, 149, 4, 249, 183, 106, 178, 22, 
    19, 41, 100, 139, 22, 197, 172, 8, 102, 97, 46, 212, 52, 13, 158, 17, 
    229, 144, 23, 204, 24, 212, 199, 31, 42, 111, 61, 233, 114, 107, 180, 151, 
    253, 14, 115, 35, 18, 127, 200, 30, 157, 136, 88, 154, 30, 6, 100, 97, 
    229, 164, 229, 97, 173, 115, 179, 2, 37, 180, 93, 251, 7, 12, 154, 205, 
    102, 33, 76, 5, 73, 143, 198, 169, 210, 8, 13, 167, 6, 153, 18, 242, 
    17, 2, 3, 14, 8, 23, 49, 0, 154, 56, 59, 146, 222, 145, 16, 109, 
    107, 131, 141, 107, 249, 56, 7, 241, 61, 16, 64, 167, 170, 140, 46, 39, 
    219, 140, 57, 44, 173, 148, 66, 116, 103, 243, 255, 245, 189, 228, 118, 135, 
    162, 96, 44, 222, 144, 228, 0, 170, 13, 90, 194, 187, 213, 251, 51, 210, 
    100, 220, 102, 210, 127, 49, 138, 6, 112, 2, 149, 109, 73, 77, 108, 228, 
    38, 85, 60, 99, 118, 211, 120, 192, 83, 244, 182, 240, 116, 91, 143, 150, 
    108, 78, 187, 129, 143, 97, 166, 114, 182, 40, 140, 199, 25, 57, 207, 163, 
    203, 72, 169, 135, 76, 91, 213, 83, 206, 231, 126, 108, 178, 60, 179, 190, 
    46, 254, 143, 74, 13, 137, 97, 127, 44, 179, 50, 249, 114, 146, 179, 219, 
    44, 69, 17, 8, 178, 48, 247, 105, 225, 80, 29, 206, 13, 226, 120, 67, 
    49, 185, 187, 193, 159, 21, 221, 34, 1, 29, 134, 143, 42, 56, 175, 239, 
    108, 71, 218, 63, 102, 28, 228, 95, 190, 11, 202, 52, 39, 34, 129, 139, 
    203, 99, 124, 239, 173, 153, 156, 69, 131, 6, 1, 225, 169, 245, 9, 11, 
    108, 110, 1, 49, 237, 166, 113, 157, 219, 168, 244, 17, 120, 23, 124, 187, 
    152, 52, 170, 40, 5, 183, 61, 208, 137, 182, 150, 179, 44, 85, 192, 245, 
    6, 127, 37, 60, 93, 232, 150, 72, 149, 81, 172, 64, 11, 77, 211, 141, 
    182, 178, 97, 248, 136, 167, 132, 95, 152, 63, 27, 50, 8, 24, 192, 55, 
    168, 251, 238, 204, 196, 74, 162, 174, 55, 151, 217, 45, 253, 52, 25, 149, 
    37, 136, 159, 171, 93, 123, 177, 84, 46, 25, 252, 54, 232, 119, 231, 44, 
    147, 96, 51, 79, 25, 4, 28, 196, 229, 127, 58, 88, 39, 158, 182, 25, 
    157, 215, 80, 187, 160, 167, 75, 201, 249, 58, 200, 201, 180, 138, 198, 115, 
    238, 105, 130, 161, 255, 191, 39, 241, 238, 221, 5, 192, 179, 144, 17, 115, 
    5, 194, 95, 236, 111, 246, 90, 161, 147, 225, 190, 224, 244, 129, 244, 178, 
    197, 165, 125, 175, 222, 102, 72, 254, 83, 2, 83, 26, 150, 176, 172, 115, 
    115, 76, 113, 27, 136, 99, 35, 67, 47, 88, 154, 233, 204, 60, 230, 75, 
    5, 101, 25, 155, 45, 178, 24, 248, 244, 168, 11, 129, 52, 240, 33, 103, 
    178, 48, 148, 30, 243, 232, 235, 121, 215, 6, 19, 175, 79, 224, 26, 109, 
    23, 147, 159, 162, 120, 139, 208, 241, 154, 243, 108, 61, 57, 194, 147, 179, 
    198, 208, 169, 255, 55, 184, 37, 125, 212, 38, 53, 239, 46, 106, 38, 105, 
    220, 9, 0, 76, 167, 37, 129, 152, 63, 59, 1, 250, 98, 196, 57, 174, 
    158, 23, 86, 100, 19, 157, 123, 44, 61, 101, 119, 134, 181, 146, 206, 248, 
    19, 33, 212, 4, 74, 148, 24, 200, 57, 167, 106, 3, 159, 112, 180, 80, 
    150, 44, 167, 209, 35, 112, 154, 70, 0, 209, 89, 251, 137, 72, 250, 126, 
    155, 52, 30, 30, 77, 167, 115, 183, 18, 8, 118, 81, 124, 90, 208, 160, 
    42, 249, 112, 122, 139, 21, 216, 188, 43, 217, 48, 180, 127, 30, 213, 137, 
    243, 242, 171, 144, 155, 10, 3, 49, 211, 113, 14, 101, 254, 144, 235, 194, 
    59, 115, 212, 234, 61, 7, 35, 27, 175, 58, 173, 190, 231, 167, 167, 102, 
    213, 75, 219, 35, 49, 12, 31, 72, 233, 168, 252, 109, 76, 127, 69, 86, 
    150, 56, 209, 110, 204, 100, 247, 189, 75, 235, 201, 229, 133, 6, 49, 141, 
    134, 235, 220, 214, 176, 53, 151, 238, 106, 248, 176, 21, 167, 173, 193, 12, 
    209, 200, 178, 112, 118, 208, 114, 117, 89, 5, 91, 167, 135, 38, 11, 61, 
    212, 93, 177, 161, 254, 52, 170, 31, 58, 195, 204, 95, 248, 21, 254, 34, 
    13, 86, 19, 71, 50, 103, 89, 24, 37, 137, 2, 189, 17, 185, 223, 94, 
    202, 29, 68, 121, 2, 61, 186, 187, 235, 114, 196, 149, 117, 127, 165, 83, 
    238, 119, 232, 120, 68, 237, 216, 242, 16, 198, 123, 163, 253, 158, 159, 94, 
    126, 254, 255, 255, 4, 0, 0, 0, 128, 0, 0, 0, 0, 0, 0, 0, 
    0, 0, 0, 0, 0, 0, 0, 0, 0, 0, 0, 0, 0, 0, 0, 0, 
    0, 0, 0, 0, 0, 0, 0, 0, 0, 0, 0, 0, 0, 0, 0, 0, 
    0, 0, 0, 0, 0, 0, 0, 0, 0, 0, 0, 0, 0, 0, 0, 0, 
    0, 0, 0, 0, 0, 0, 0, 0, 0, 0, 0, 0, 0, 0, 0, 0, 
    0, 0, 0, 0, 0, 0, 0, 0, 0, 0, 0, 0, 0, 0, 0, 0, 
    0, 0, 0, 0, 0, 0, 0, 0, 0, 0, 0, 0, 0, 0, 0, 0, 
    0, 0, 0, 0, 0, 0, 0, 0, 0, 0, 0, 0, 0, 0, 0, 0, 
    0, 0, 0, 0, 0, 0, 0, 0, 0, 0, 0, 0, 10, 255, 255, 255, 
    4, 0, 0, 0, 64, 0, 0, 0, 92, 15, 96, 240, 156, 91, 28, 163, 
    252, 91, 154, 206, 129, 251, 21, 169, 253, 136, 139, 251, 236, 90, 201, 254, 
    244, 7, 16, 102, 72, 0, 117, 174, 123, 28, 7, 6, 71, 81, 184, 147, 
    91, 41, 174, 178, 177, 129, 201, 204, 164, 186, 200, 162, 123, 72, 54, 19, 
    106, 21, 189, 83, 246, 204, 125, 183, 86, 255, 255, 255, 4, 0, 0, 0, 
    8, 0, 0, 0, 0, 0, 0, 0, 0, 0, 0, 0, 56, 255, 255, 255, 
    60, 255, 255, 255, 15, 0, 0, 0, 77, 76, 73, 82, 32, 67, 111, 110, 
    118, 101, 114, 116, 101, 100, 46, 0, 1, 0, 0, 0, 20, 0, 0, 0, 
    0, 0, 14, 0, 24, 0, 20, 0, 16, 0, 12, 0, 8, 0, 4, 0, 
    14, 0, 0, 0, 20, 0, 0, 0, 28, 0, 0, 0, 40, 1, 0, 0, 
    44, 1, 0, 0, 48, 1, 0, 0, 4, 0, 0, 0, 109, 97, 105, 110, 
    0, 0, 0, 0, 4, 0, 0, 0, 208, 0, 0, 0, 136, 0, 0, 0, 
    80, 0, 0, 0, 20, 0, 0, 0, 0, 0, 14, 0, 26, 0, 20, 0, 
    16, 0, 12, 0, 11, 0, 4, 0, 14, 0, 0, 0, 28, 0, 0, 0, 
    0, 0, 0, 9, 28, 0, 0, 0, 32, 0, 0, 0, 1, 0, 0, 0, 
    0, 0, 6, 0, 8, 0, 4, 0, 6, 0, 0, 0, 0, 0, 128, 63, 
    1, 0, 0, 0, 10, 0, 0, 0, 1, 0, 0, 0, 9, 0, 0, 0, 
    150, 255, 255, 255, 20, 0, 0, 0, 0, 0, 0, 8, 16, 0, 0, 0, 
    20, 0, 0, 0, 4, 0, 4, 0, 4, 0, 0, 0, 1, 0, 0, 0, 
    9, 0, 0, 0, 3, 0, 0, 0, 8, 0, 0, 0, 2, 0, 0, 0, 
    1, 0, 0, 0, 202, 255, 255, 255, 16, 0, 0, 0, 0, 0, 0, 8, 
    16, 0, 0, 0, 20, 0, 0, 0, 186, 255, 255, 255, 0, 0, 0, 1, 
    1, 0, 0, 0, 8, 0, 0, 0, 3, 0, 0, 0, 7, 0, 0, 0, 
    4, 0, 0, 0, 3, 0, 0, 0, 0, 0, 14, 0, 22, 0, 0, 0, 
    16, 0, 12, 0, 11, 0, 4, 0, 14, 0, 0, 0, 24, 0, 0, 0, 
    0, 0, 0, 8, 24, 0, 0, 0, 28, 0, 0, 0, 0, 0, 6, 0, 
    8, 0, 7, 0, 6, 0, 0, 0, 0, 0, 0, 1, 1, 0, 0, 0, 
    7, 0, 0, 0, 3, 0, 0, 0, 0, 0, 0, 0, 6, 0, 0, 0, 
    5, 0, 0, 0, 1, 0, 0, 0, 10, 0, 0, 0, 1, 0, 0, 0, 
    0, 0, 0, 0, 11, 0, 0, 0, 32, 14, 0, 0, 152, 13, 0, 0, 
    12, 13, 0, 0, 56, 11, 0, 0, 92, 9, 0, 0, 8, 6, 0, 0, 
    172, 2, 0, 0, 232, 1, 0, 0, 36, 1, 0, 0, 128, 0, 0, 0, 
    4, 0, 0, 0, 34, 242, 255, 255, 0, 0, 0, 1, 24, 0, 0, 0, 
    32, 0, 0, 0, 60, 0, 0, 0, 11, 0, 0, 0, 0, 0, 0, 9, 
    80, 0, 0, 0, 2, 0, 0, 0, 255, 255, 255, 255, 2, 0, 0, 0, 
    12, 242, 255, 255, 8, 0, 0, 0, 16, 0, 0, 0, 1, 0, 0, 0, 
    128, 255, 255, 255, 255, 255, 255, 255, 1, 0, 0, 0, 0, 0, 128, 59, 
    27, 0, 0, 0, 83, 116, 97, 116, 101, 102, 117, 108, 80, 97, 114, 116, 
    105, 116, 105, 111, 110, 101, 100, 67, 97, 108, 108, 95, 49, 58, 48, 0, 
    2, 0, 0, 0, 1, 0, 0, 0, 2, 0, 0, 0, 154, 242, 255, 255, 
    0, 0, 0, 1, 24, 0, 0, 0, 32, 0, 0, 0, 60, 0, 0, 0, 
    10, 0, 0, 0, 0, 0, 0, 9, 120, 0, 0, 0, 2, 0, 0, 0, 
    255, 255, 255, 255, 2, 0, 0, 0, 132, 242, 255, 255, 8, 0, 0, 0, 
    16, 0, 0, 0, 1, 0, 0, 0, 197, 255, 255, 255, 255, 255, 255, 255, 
    1, 0, 0, 0, 66, 152, 199, 66, 64, 0, 0, 0, 115, 101, 113, 117, 
    101, 110, 116, 105, 97, 108, 95, 49, 95, 49, 47, 100, 101, 110, 115, 101, 
    95, 53, 95, 49, 47, 77, 97, 116, 77, 117, 108, 59, 115, 101, 113, 117, 
    101, 110, 116, 105, 97, 108, 95, 49, 95, 49, 47, 100, 101, 110, 115, 101, 
    95, 53, 95, 49, 47, 66, 105, 97, 115, 65, 100, 100, 0, 0, 0, 0, 
    2, 0, 0, 0, 1, 0, 0, 0, 2, 0, 0, 0, 58, 243, 255, 255, 
    0, 0, 0, 1, 24, 0, 0, 0, 32, 0, 0, 0, 64, 0, 0, 0, 
    9, 0, 0, 0, 0, 0, 0, 9, 152, 0, 0, 0, 2, 0, 0, 0, 
    255, 255, 255, 255, 32, 0, 0, 0, 36, 243, 255, 255, 8, 0, 0, 0, 
    20, 0, 0, 0, 1, 0, 0, 0, 128, 255, 255, 255, 255, 255, 255, 255, 
    0, 0, 0, 0, 1, 0, 0, 0, 53, 55, 190, 66, 94, 0, 0, 0, 
    115, 101, 113, 117, 101, 110, 116, 105, 97, 108, 95, 49, 95, 49, 47, 100, 
    101, 110, 115, 101, 95, 52, 95, 49, 47, 77, 97, 116, 77, 117, 108, 59, 
    115, 101, 113, 117, 101, 110, 116, 105, 97, 108, 95, 49, 95, 49, 47, 100, 
    101, 110, 115, 101, 95, 52, 95, 49, 47, 82, 101, 108, 117, 59, 115, 101, 
    113, 117, 101, 110, 116, 105, 97, 108, 95, 49, 95, 49, 47, 100, 101, 110, 
    115, 101, 95, 52, 95, 49, 47, 66, 105, 97, 115, 65, 100, 100, 0, 0, 
    2, 0, 0, 0, 1, 0, 0, 0, 32, 0, 0, 0, 250, 243, 255, 255, 
    0, 0, 0, 1, 24, 0, 0, 0, 32, 0, 0, 0, 64, 0, 0, 0, 
    8, 0, 0, 0, 0, 0, 0, 9, 152, 0, 0, 0, 2, 0, 0, 0, 
    255, 255, 255, 255, 64, 0, 0, 0, 228, 243, 255, 255, 8, 0, 0, 0, 
    20, 0, 0, 0, 1, 0, 0, 0, 128, 255, 255, 255, 255, 255, 255, 255, 
    0, 0, 0, 0, 1, 0, 0, 0, 152, 62, 1, 67, 94, 0, 0, 0, 
    115, 101, 113, 117, 101, 110, 116, 105, 97, 108, 95, 49, 95, 49, 47, 100, 
    101, 110, 115, 101, 95, 51, 95, 49, 47, 77, 97, 116, 77, 117, 108, 59, 
    115, 101, 113, 117, 101, 110, 116, 105, 97, 108, 95, 49, 95, 49, 47, 100, 
    101, 110, 115, 101, 95, 51, 95, 49, 47, 82, 101, 108, 117, 59, 115, 101, 
    113, 117, 101, 110, 116, 105, 97, 108, 95, 49, 95, 49, 47, 100, 101, 110, 
    115, 101, 95, 51, 95, 49, 47, 66, 105, 97, 115, 65, 100, 100, 0, 0, 
    2, 0, 0, 0, 1, 0, 0, 0, 64, 0, 0, 0, 62, 245, 255, 255, 
    0, 0, 0, 1, 20, 0, 0, 0, 40, 3, 0, 0, 7, 0, 0, 0, 
    0, 0, 0, 9, 52, 3, 0, 0, 148, 244, 255, 255, 8, 0, 0, 0, 
    12, 2, 0, 0, 64, 0, 0, 0, 0, 0, 0, 0, 0, 0, 0, 0, 
    0, 0, 0, 0, 0, 0, 0, 0, 0, 0, 0, 0, 0, 0, 0, 0, 
    0, 0, 0, 0, 0, 0, 0, 0, 0, 0, 0, 0, 0, 0, 0, 0, 
    0, 0, 0, 0, 0, 0, 0, 0, 0, 0, 0, 0, 0, 0, 0, 0, 
    0, 0, 0, 0, 0, 0, 0, 0, 0, 0, 0, 0, 0, 0, 0, 0, 
    0, 0, 0, 0, 0, 0, 0, 0, 0, 0, 0, 0, 0, 0, 0, 0, 
    0, 0, 0, 0, 0, 0, 0, 0, 0, 0, 0, 0, 0, 0, 0, 0, 
    0, 0, 0, 0, 0, 0, 0, 0, 0, 0, 0, 0, 0, 0, 0, 0, 
    0, 0, 0, 0, 0, 0, 0, 0, 0, 0, 0, 0, 0, 0, 0, 0, 
    0, 0, 0, 0, 0, 0, 0, 0, 0, 0, 0, 0, 0, 0, 0, 0, 
    0, 0, 0, 0, 0, 0, 0, 0, 0, 0, 0, 0, 0, 0, 0, 0, 
    0, 0, 0, 0, 0, 0, 0, 0, 0, 0, 0, 0, 0, 0, 0, 0, 
    0, 0, 0, 0, 0, 0, 0, 0, 0, 0, 0, 0, 0, 0, 0, 0, 
    0, 0, 0, 0, 0, 0, 0, 0, 0, 0, 0, 0, 0, 0, 0, 0, 
    0, 0, 0, 0, 0, 0, 0, 0, 0, 0, 0, 0, 0, 0, 0, 0, 
    0, 0, 0, 0, 0, 0, 0, 0, 0, 0, 0, 0, 0, 0, 0, 0, 
    0, 0, 0, 0, 0, 0, 0, 0, 0, 0, 0, 0, 0, 0, 0, 0, 
    0, 0, 0, 0, 0, 0, 0, 0, 0, 0, 0, 0, 0, 0, 0, 0, 
    0, 0, 0, 0, 0, 0, 0, 0, 0, 0, 0, 0, 0, 0, 0, 0, 
    0, 0, 0, 0, 0, 0, 0, 0, 0, 0, 0, 0, 0, 0, 0, 0, 
    0, 0, 0, 0, 0, 0, 0, 0, 0, 0, 0, 0, 0, 0, 0, 0, 
    0, 0, 0, 0, 0, 0, 0, 0, 0, 0, 0, 0, 0, 0, 0, 0, 
    0, 0, 0, 0, 0, 0, 0, 0, 0, 0, 0, 0, 0, 0, 0, 0, 
    0, 0, 0, 0, 0, 0, 0, 0, 0, 0, 0, 0, 0, 0, 0, 0, 
    0, 0, 0, 0, 0, 0, 0, 0, 0, 0, 0, 0, 0, 0, 0, 0, 
    0, 0, 0, 0, 0, 0, 0, 0, 0, 0, 0, 0, 0, 0, 0, 0, 
    0, 0, 0, 0, 0, 0, 0, 0, 0, 0, 0, 0, 0, 0, 0, 0, 
    0, 0, 0, 0, 0, 0, 0, 0, 0, 0, 0, 0, 0, 0, 0, 0, 
    0, 0, 0, 0, 0, 0, 0, 0, 0, 0, 0, 0, 0, 0, 0, 0, 
    0, 0, 0, 0, 0, 0, 0, 0, 0, 0, 0, 0, 0, 0, 0, 0, 
    0, 0, 0, 0, 0, 0, 0, 0, 0, 0, 0, 0, 0, 0, 0, 0, 
    0, 0, 0, 0, 0, 0, 0, 0, 0, 0, 0, 0, 0, 0, 0, 0, 
    0, 0, 0, 0, 0, 0, 0, 0, 0, 0, 0, 0, 64, 0, 0, 0, 
    250, 245, 224, 58, 212, 120, 222, 58, 153, 185, 226, 58, 162, 141, 224, 58, 
    177, 51, 227, 58, 4, 242, 221, 58, 184, 81, 237, 58, 159, 114, 232, 58, 
    197, 100, 231, 58, 141, 220, 221, 58, 12, 132, 233, 58, 227, 163, 232, 58, 
    67, 104, 237, 58, 141, 11, 233, 58, 106, 183, 237, 58, 107, 51, 218, 58, 
    12, 205, 221, 58, 16, 221, 221, 58, 25, 181, 222, 58, 145, 172, 222, 58, 
    16, 95, 237, 58, 147, 144, 240, 58, 209, 14, 225, 58, 166, 219, 231, 58, 
    248, 129, 232, 58, 198, 209, 225, 58, 171, 172, 232, 58, 56, 79, 211, 58, 
    53, 23, 229, 58, 65, 198, 246, 58, 159, 187, 236, 58, 171, 95, 224, 58, 
    30, 15, 231, 58, 173, 175, 219, 58, 249, 216, 232, 58, 108, 170, 236, 58, 
    59, 154, 237, 58, 210, 37, 224, 58, 218, 139, 229, 58, 217, 73, 237, 58, 
    237, 229, 247, 58, 253, 187, 223, 58, 207, 47, 229, 58, 118, 203, 238, 58, 
    5, 184, 220, 58, 151, 146, 245, 58, 55, 225, 231, 58, 40, 228, 220, 58, 
    47, 83, 215, 58, 9, 94, 229, 58, 203, 116, 217, 58, 176, 8, 215, 58, 
    73, 7, 224, 58, 232, 185, 231, 58, 138, 130, 226, 58, 27, 205, 220, 58, 
    228, 177, 234, 58, 218, 219, 214, 58, 4, 81, 234, 58, 36, 188, 220, 58, 
    21, 11, 221, 58, 211, 214, 224, 58, 12, 121, 235, 58, 18, 131, 226, 58, 
    18, 0, 0, 0, 116, 102, 108, 46, 112, 115, 101, 117, 100, 111, 95, 113, 
    99, 111, 110, 115, 116, 53, 0, 0, 2, 0, 0, 0, 64, 0, 0, 0, 
    60, 0, 0, 0, 150, 248, 255, 255, 0, 0, 0, 1, 20, 0, 0, 0, 
    36, 3, 0, 0, 6, 0, 0, 0, 0, 0, 0, 2, 48, 3, 0, 0, 
    236, 247, 255, 255, 8, 0, 0, 0, 8, 2, 0, 0, 64, 0, 0, 0, 
    0, 0, 0, 0, 0, 0, 0, 0, 0, 0, 0, 0, 0, 0, 0, 0, 
    0, 0, 0, 0, 0, 0, 0, 0, 0, 0, 0, 0, 0, 0, 0, 0, 
    0, 0, 0, 0, 0, 0, 0, 0, 0, 0, 0, 0, 0, 0, 0, 0, 
    0, 0, 0, 0, 0, 0, 0, 0, 0, 0, 0, 0, 0, 0, 0, 0, 
    0, 0, 0, 0, 0, 0, 0, 0, 0, 0, 0, 0, 0, 0, 0, 0, 
    0, 0, 0, 0, 0, 0, 0, 0, 0, 0, 0, 0, 0, 0, 0, 0, 
    0, 0, 0, 0, 0, 0, 0, 0, 0, 0, 0, 0, 0, 0, 0, 0, 
    0, 0, 0, 0, 0, 0, 0, 0, 0, 0, 0, 0, 0, 0, 0, 0, 
    0, 0, 0, 0, 0, 0, 0, 0, 0, 0, 0, 0, 0, 0, 0, 0, 
    0, 0, 0, 0, 0, 0, 0, 0, 0, 0, 0, 0, 0, 0, 0, 0, 
    0, 0, 0, 0, 0, 0, 0, 0, 0, 0, 0, 0, 0, 0, 0, 0, 
    0, 0, 0, 0, 0, 0, 0, 0, 0, 0, 0, 0, 0, 0, 0, 0, 
    0, 0, 0, 0, 0, 0, 0, 0, 0, 0, 0, 0, 0, 0, 0, 0, 
    0, 0, 0, 0, 0, 0, 0, 0, 0, 0, 0, 0, 0, 0, 0, 0, 
    0, 0, 0, 0, 0, 0, 0, 0, 0, 0, 0, 0, 0, 0, 0, 0, 
    0, 0, 0, 0, 0, 0, 0, 0, 0, 0, 0, 0, 0, 0, 0, 0, 
    0, 0, 0, 0, 0, 0, 0, 0, 0, 0, 0, 0, 0, 0, 0, 0, 
    0, 0, 0, 0, 0, 0, 0, 0, 0, 0, 0, 0, 0, 0, 0, 0, 
    0, 0, 0, 0, 0, 0, 0, 0, 0, 0, 0, 0, 0, 0, 0, 0, 
    0, 0, 0, 0, 0, 0, 0, 0, 0, 0, 0, 0, 0, 0, 0, 0, 
    0, 0, 0, 0, 0, 0, 0, 0, 0, 0, 0, 0, 0, 0, 0, 0, 
    0, 0, 0, 0, 0, 0, 0, 0, 0, 0, 0, 0, 0, 0, 0, 0, 
    0, 0, 0, 0, 0, 0, 0, 0, 0, 0, 0, 0, 0, 0, 0, 0, 
    0, 0, 0, 0, 0, 0, 0, 0, 0, 0, 0, 0, 0, 0, 0, 0, 
    0, 0, 0, 0, 0, 0, 0, 0, 0, 0, 0, 0, 0, 0, 0, 0, 
    0, 0, 0, 0, 0, 0, 0, 0, 0, 0, 0, 0, 0, 0, 0, 0, 
    0, 0, 0, 0, 0, 0, 0, 0, 0, 0, 0, 0, 0, 0, 0, 0, 
    0, 0, 0, 0, 0, 0, 0, 0, 0, 0, 0, 0, 0, 0, 0, 0, 
    0, 0, 0, 0, 0, 0, 0, 0, 0, 0, 0, 0, 0, 0, 0, 0, 
    0, 0, 0, 0, 0, 0, 0, 0, 0, 0, 0, 0, 0, 0, 0, 0, 
    0, 0, 0, 0, 0, 0, 0, 0, 0, 0, 0, 0, 0, 0, 0, 0, 
    0, 0, 0, 0, 0, 0, 0, 0, 0, 0, 0, 0, 0, 0, 0, 0, 
    64, 0, 0, 0, 254, 200, 252, 62, 10, 253, 249, 62, 121, 196, 254, 62, 
    190, 83, 252, 62, 171, 77, 255, 62, 141, 101, 249, 62, 5, 86, 5, 63, 
    89, 153, 2, 63, 188, 1, 2, 63, 111, 77, 249, 62, 249, 50, 3, 63, 
    7, 181, 2, 63, 176, 98, 5, 63, 69, 239, 2, 63, 40, 143, 5, 63, 
    100, 48, 245, 62, 3, 60, 249, 62, 2, 78, 249, 62, 195, 64, 250, 62, 
    45, 55, 250, 62, 133, 93, 5, 63, 213, 40, 7, 63, 232, 228, 252, 62, 
    135, 68, 2, 63, 249, 161, 2, 63, 250, 191, 253, 62, 246, 185, 2, 63, 
    252, 113, 237, 62, 126, 182, 0, 63, 251, 165, 10, 63, 177, 1, 5, 63, 
    24, 32, 252, 62, 157, 209, 1, 63, 174, 219, 246, 62, 219, 210, 2, 63, 
    7, 248, 4, 63, 195, 126, 5, 63, 23, 223, 251, 62, 8, 248, 0, 63, 
    153, 81, 5, 63, 155, 71, 11, 63, 43, 104, 251, 62, 81, 196, 0, 63, 
    65, 42, 6, 63, 184, 4, 248, 62, 31, 249, 9, 63, 167, 71, 2, 63, 
    81, 54, 248, 62, 24, 245, 241, 62, 74, 222, 0, 63, 48, 90, 244, 62, 
    98, 161, 241, 62, 199, 188, 251, 62, 145, 49, 2, 63, 155, 134, 254, 62, 
    106, 28, 248, 62, 143, 220, 3, 63, 1, 111, 241, 62, 34, 166, 3, 63, 
    90, 9, 248, 62, 14, 98, 248, 62, 253, 165, 252, 62, 116, 76, 4, 63, 
    52, 135, 254, 62, 18, 0, 0, 0, 116, 102, 108, 46, 112, 115, 101, 117, 
    100, 111, 95, 113, 99, 111, 110, 115, 116, 52, 0, 0, 1, 0, 0, 0, 
    64, 0, 0, 0, 230, 251, 255, 255, 0, 0, 0, 1, 20, 0, 0, 0, 
    168, 1, 0, 0, 5, 0, 0, 0, 0, 0, 0, 9, 180, 1, 0, 0, 
    60, 251, 255, 255, 8, 0, 0, 0, 12, 1, 0, 0, 32, 0, 0, 0, 
    0, 0, 0, 0, 0, 0, 0, 0, 0, 0, 0, 0, 0, 0, 0, 0, 
    0, 0, 0, 0, 0, 0, 0, 0, 0, 0, 0, 0, 0, 0, 0, 0, 
    0, 0, 0, 0, 0, 0, 0, 0, 0, 0, 0, 0, 0, 0, 0, 0, 
    0, 0, 0, 0, 0, 0, 0, 0, 0, 0, 0, 0, 0, 0, 0, 0, 
    0, 0, 0, 0, 0, 0, 0, 0, 0, 0, 0, 0, 0, 0, 0, 0, 
    0, 0, 0, 0, 0, 0, 0, 0, 0, 0, 0, 0, 0, 0, 0, 0, 
    0, 0, 0, 0, 0, 0, 0, 0, 0, 0, 0, 0, 0, 0, 0, 0, 
    0, 0, 0, 0, 0, 0, 0, 0, 0, 0, 0, 0, 0, 0, 0, 0, 
    0, 0, 0, 0, 0, 0, 0, 0, 0, 0, 0, 0, 0, 0, 0, 0, 
    0, 0, 0, 0, 0, 0, 0, 0, 0, 0, 0, 0, 0, 0, 0, 0, 
    0, 0, 0, 0, 0, 0, 0, 0, 0, 0, 0, 0, 0, 0, 0, 0, 
    0, 0, 0, 0, 0, 0, 0, 0, 0, 0, 0, 0, 0, 0, 0, 0, 
    0, 0, 0, 0, 0, 0, 0, 0, 0, 0, 0, 0, 0, 0, 0, 0, 
    0, 0, 0, 0, 0, 0, 0, 0, 0, 0, 0, 0, 0, 0, 0, 0, 
    0, 0, 0, 0, 0, 0, 0, 0, 0, 0, 0, 0, 0, 0, 0, 0, 
    0, 0, 0, 0, 0, 0, 0, 0, 0, 0, 0, 0, 0, 0, 0, 0, 
    0, 0, 0, 0, 32, 0, 0, 0, 55, 190, 251, 58, 96, 56, 6, 59, 
    77, 225, 253, 58, 190, 19, 253, 58, 52, 61, 0, 59, 68, 153, 2, 59, 
    37, 152, 5, 59, 202, 102, 250, 58, 198, 228, 2, 59, 99, 222, 4, 59, 
    100, 182, 4, 59, 229, 90, 254, 58, 194, 34, 0, 59, 124, 100, 1, 59, 
    185, 12, 254, 58, 19, 222, 2, 59, 147, 67, 249, 58, 123, 89, 254, 58, 
    91, 103, 0, 59, 189, 116, 0, 59, 150, 190, 3, 59, 127, 37, 255, 58, 
    99, 27, 254, 58, 1, 255, 252, 58, 97, 34, 248, 58, 130, 41, 7, 59, 
    191, 46, 252, 58, 111, 113, 254, 58, 81, 36, 1, 59, 117, 220, 252, 58, 
    131, 178, 2, 59, 58, 211, 1, 59, 18, 0, 0, 0, 116, 102, 108, 46, 
    112, 115, 101, 117, 100, 111, 95, 113, 99, 111, 110, 115, 116, 51, 0, 0, 
    2, 0, 0, 0, 32, 0, 0, 0, 64, 0, 0, 0, 190, 253, 255, 255, 
    0, 0, 0, 1, 20, 0, 0, 0, 164, 1, 0, 0, 4, 0, 0, 0, 
    0, 0, 0, 2, 176, 1, 0, 0, 20, 253, 255, 255, 8, 0, 0, 0, 
    8, 1, 0, 0, 32, 0, 0, 0, 0, 0, 0, 0, 0, 0, 0, 0, 
    0, 0, 0, 0, 0, 0, 0, 0, 0, 0, 0, 0, 0, 0, 0, 0, 
    0, 0, 0, 0, 0, 0, 0, 0, 0, 0, 0, 0, 0, 0, 0, 0, 
    0, 0, 0, 0, 0, 0, 0, 0, 0, 0, 0, 0, 0, 0, 0, 0, 
    0, 0, 0, 0, 0, 0, 0, 0, 0, 0, 0, 0, 0, 0, 0, 0, 
    0, 0, 0, 0, 0, 0, 0, 0, 0, 0, 0, 0, 0, 0, 0, 0, 
    0, 0, 0, 0, 0, 0, 0, 0, 0, 0, 0, 0, 0, 0, 0, 0, 
    0, 0, 0, 0, 0, 0, 0, 0, 0, 0, 0, 0, 0, 0, 0, 0, 
    0, 0, 0, 0, 0, 0, 0, 0, 0, 0, 0, 0, 0, 0, 0, 0, 
    0, 0, 0, 0, 0, 0, 0, 0, 0, 0, 0, 0, 0, 0, 0, 0, 
    0, 0, 0, 0, 0, 0, 0, 0, 0, 0, 0, 0, 0, 0, 0, 0, 
    0, 0, 0, 0, 0, 0, 0, 0, 0, 0, 0, 0, 0, 0, 0, 0, 
    0, 0, 0, 0, 0, 0, 0, 0, 0, 0, 0, 0, 0, 0, 0, 0, 
    0, 0, 0, 0, 0, 0, 0, 0, 0, 0, 0, 0, 0, 0, 0, 0, 
    0, 0, 0, 0, 0, 0, 0, 0, 0, 0, 0, 0, 0, 0, 0, 0, 
    0, 0, 0, 0, 0, 0, 0, 0, 0, 0, 0, 0, 0, 0, 0, 0, 
    0, 0, 0, 0, 0, 0, 0, 0, 32, 0, 0, 0, 207, 48, 126, 62, 
    115, 134, 135, 62, 155, 44, 128, 62, 168, 137, 127, 62, 100, 124, 129, 62, 
    84, 222, 131, 62, 170, 228, 134, 62, 11, 214, 124, 62, 146, 42, 132, 62, 
    25, 41, 134, 62, 183, 0, 134, 62, 254, 105, 128, 62, 177, 97, 129, 62, 
    139, 166, 130, 62, 135, 66, 128, 62, 206, 35, 132, 62, 255, 175, 123, 62, 
    72, 105, 128, 62, 244, 166, 129, 62, 120, 180, 129, 62, 128, 6, 133, 62, 
    72, 208, 128, 62, 238, 73, 128, 62, 183, 116, 127, 62, 253, 139, 122, 62, 
    238, 121, 136, 62, 111, 162, 126, 62, 95, 117, 128, 62, 193, 101, 130, 62, 
    213, 81, 127, 62, 210, 247, 131, 62, 93, 22, 131, 62, 18, 0, 0, 0, 
    116, 102, 108, 46, 112, 115, 101, 117, 100, 111, 95, 113, 99, 111, 110, 115, 
    116, 50, 0, 0, 1, 0, 0, 0, 32, 0, 0, 0, 142, 255, 255, 255, 
    0, 0, 0, 1, 20, 0, 0, 0, 64, 0, 0, 0, 3, 0, 0, 0, 
    0, 0, 0, 9, 76, 0, 0, 0, 228, 254, 255, 255, 8, 0, 0, 0, 
    28, 0, 0, 0, 2, 0, 0, 0, 0, 0, 0, 0, 0, 0, 0, 0, 
    0, 0, 0, 0, 0, 0, 0, 0, 0, 0, 0, 0, 2, 0, 0, 0, 
    132, 120, 87, 59, 228, 82, 84, 59, 18, 0, 0, 0, 116, 102, 108, 46, 
    112, 115, 101, 117, 100, 111, 95, 113, 99, 111, 110, 115, 116, 49, 0, 0, 
    2, 0, 0, 0, 2, 0, 0, 0, 32, 0, 0, 0, 0, 0, 22, 0, 
    28, 0, 24, 0, 23, 0, 16, 0, 12, 0, 8, 0, 0, 0, 0, 0, 
    0, 0, 7, 0, 22, 0, 0, 0, 0, 0, 0, 1, 20, 0, 0, 0, 
    64, 0, 0, 0, 2, 0, 0, 0, 0, 0, 0, 2, 76, 0, 0, 0, 
    108, 255, 255, 255, 8, 0, 0, 0, 28, 0, 0, 0, 2, 0, 0, 0, 
    0, 0, 0, 0, 0, 0, 0, 0, 0, 0, 0, 0, 0, 0, 0, 0, 
    0, 0, 0, 0, 2, 0, 0, 0, 233, 25, 160, 62, 79, 195, 157, 62, 
    17, 0, 0, 0, 116, 102, 108, 46, 112, 115, 101, 117, 100, 111, 95, 113, 
    99, 111, 110, 115, 116, 0, 0, 0, 1, 0, 0, 0, 2, 0, 0, 0, 
    0, 0, 22, 0, 32, 0, 28, 0, 27, 0, 20, 0, 16, 0, 12, 0, 
    0, 0, 0, 0, 8, 0, 7, 0, 22, 0, 0, 0, 0, 0, 0, 1, 
    24, 0, 0, 0, 44, 0, 0, 0, 76, 0, 0, 0, 1, 0, 0, 0, 
    0, 0, 0, 9, 104, 0, 0, 0, 2, 0, 0, 0, 255, 255, 255, 255, 
    60, 0, 0, 0, 12, 0, 12, 0, 0, 0, 0, 0, 8, 0, 4, 0, 
    12, 0, 0, 0, 8, 0, 0, 0, 20, 0, 0, 0, 1, 0, 0, 0, 
    242, 255, 255, 255, 255, 255, 255, 255, 0, 0, 0, 0, 1, 0, 0, 0, 
    233, 212, 143, 67, 32, 0, 0, 0, 115, 101, 114, 118, 105, 110, 103, 95, 
    100, 101, 102, 97, 117, 108, 116, 95, 107, 101, 114, 97, 115, 95, 116, 101, 
    110, 115, 111, 114, 95, 52, 58, 48, 0, 0, 0, 0, 2, 0, 0, 0, 
    1, 0, 0, 0, 60, 0, 0, 0, 2, 0, 0, 0, 36, 0, 0, 0, 
    4, 0, 0, 0, 240, 255, 255, 255, 25, 0, 0, 0, 2, 0, 0, 0, 
    0, 0, 0, 25, 12, 0, 16, 0, 15, 0, 0, 0, 8, 0, 4, 0, 
    12, 0, 0, 0, 9, 0, 0, 0, 4, 0, 0, 0, 0, 0, 0, 9, 
    
};
